{
  "version": "1.0",
  "truncation": null,
  "padding": null,
  "added_tokens": [
    {
      "id": 0,
      "content": "<|unk|>",
      "single_word": false,
      "lstrip": false,
      "rstrip": false,
      "normalized": false,
      "special": true
    },
    {
      "id": 1,
      "content": "<|endoftext|>",
      "single_word": false,
      "lstrip": false,
      "rstrip": false,
      "normalized": false,
      "special": true
    },
    {
      "id": 2,
      "content": "<|pad|>",
      "single_word": false,
      "lstrip": false,
      "rstrip": false,
      "normalized": false,
      "special": true
    }
  ],
  "normalizer": null,
  "pre_tokenizer": {
    "type": "ByteLevel",
    "add_prefix_space": false,
    "trim_offsets": true,
    "use_regex": true
  },
  "post_processor": {
    "type": "TemplateProcessing",
    "single": [
      {
        "Sequence": {
          "id": "A",
          "type_id": 0
        }
      }
    ],
    "pair": [
      {
        "Sequence": {
          "id": "A",
          "type_id": 0
        }
      },
      {
        "Sequence": {
          "id": "B",
          "type_id": 1
        }
      }
    ],
    "special_tokens": {}
  },
  "decoder": {
    "type": "ByteLevel",
    "add_prefix_space": true,
    "trim_offsets": true,
    "use_regex": true
  },
  "model": {
    "type": "BPE",
    "dropout": null,
    "unk_token": "<|unk|>",
    "continuing_subword_prefix": null,
    "end_of_word_suffix": null,
    "fuse_unk": false,
    "byte_fallback": false,
    "ignore_merges": false,
    "vocab": {
      "<|unk|>": 0,
      "<|endoftext|>": 1,
      "<|pad|>": 2,
      "!": 3,
      "\"": 4,
      "#": 5,
      "$": 6,
      "%": 7,
      "&": 8,
      "'": 9,
      "(": 10,
      ")": 11,
      "*": 12,
      "+": 13,
      ",": 14,
      "-": 15,
      ".": 16,
      "/": 17,
      "0": 18,
      "1": 19,
      "2": 20,
      "3": 21,
      "4": 22,
      "5": 23,
      "6": 24,
      "7": 25,
      "8": 26,
      "9": 27,
      ":": 28,
      ";": 29,
      "<": 30,
      "=": 31,
      ">": 32,
      "?": 33,
      "@": 34,
      "A": 35,
      "B": 36,
      "C": 37,
      "D": 38,
      "E": 39,
      "F": 40,
      "G": 41,
      "H": 42,
      "I": 43,
      "J": 44,
      "K": 45,
      "L": 46,
      "M": 47,
      "N": 48,
      "O": 49,
      "P": 50,
      "Q": 51,
      "R": 52,
      "S": 53,
      "T": 54,
      "U": 55,
      "V": 56,
      "W": 57,
      "X": 58,
      "Y": 59,
      "Z": 60,
      "[": 61,
      "\\": 62,
      "]": 63,
      "^": 64,
      "_": 65,
      "`": 66,
      "a": 67,
      "b": 68,
      "c": 69,
      "d": 70,
      "e": 71,
      "f": 72,
      "g": 73,
      "h": 74,
      "i": 75,
      "j": 76,
      "k": 77,
      "l": 78,
      "m": 79,
      "n": 80,
      "o": 81,
      "p": 82,
      "q": 83,
      "r": 84,
      "s": 85,
      "t": 86,
      "u": 87,
      "v": 88,
      "w": 89,
      "x": 90,
      "y": 91,
      "z": 92,
      "{": 93,
      "|": 94,
      "}": 95,
      "~": 96,
      "¡": 97,
      "¢": 98,
      "£": 99,
      "¤": 100,
      "¥": 101,
      "¦": 102,
      "§": 103,
      "¨": 104,
      "©": 105,
      "ª": 106,
      "«": 107,
      "¬": 108,
      "®": 109,
      "¯": 110,
      "°": 111,
      "±": 112,
      "²": 113,
      "³": 114,
      "´": 115,
      "µ": 116,
      "¶": 117,
      "·": 118,
      "¸": 119,
      "¹": 120,
      "º": 121,
      "»": 122,
      "¼": 123,
      "½": 124,
      "¾": 125,
      "¿": 126,
      "À": 127,
      "Á": 128,
      "Â": 129,
      "Ã": 130,
      "Ä": 131,
      "Å": 132,
      "Æ": 133,
      "Ç": 134,
      "È": 135,
      "É": 136,
      "Ê": 137,
      "Ë": 138,
      "Ì": 139,
      "Í": 140,
      "Î": 141,
      "Ï": 142,
      "Ð": 143,
      "Ñ": 144,
      "Ò": 145,
      "Ó": 146,
      "Ô": 147,
      "Õ": 148,
      "Ö": 149,
      "×": 150,
      "Ø": 151,
      "Ù": 152,
      "Ú": 153,
      "Û": 154,
      "Ü": 155,
      "Ý": 156,
      "Þ": 157,
      "ß": 158,
      "à": 159,
      "á": 160,
      "â": 161,
      "ã": 162,
      "ä": 163,
      "å": 164,
      "æ": 165,
      "ç": 166,
      "è": 167,
      "é": 168,
      "ê": 169,
      "ë": 170,
      "ì": 171,
      "í": 172,
      "î": 173,
      "ï": 174,
      "ð": 175,
      "ñ": 176,
      "ò": 177,
      "ó": 178,
      "ô": 179,
      "õ": 180,
      "ö": 181,
      "÷": 182,
      "ø": 183,
      "ù": 184,
      "ú": 185,
      "û": 186,
      "ü": 187,
      "ý": 188,
      "þ": 189,
      "ÿ": 190,
      "Ā": 191,
      "ā": 192,
      "Ă": 193,
      "ă": 194,
      "Ą": 195,
      "ą": 196,
      "Ć": 197,
      "ć": 198,
      "Ĉ": 199,
      "ĉ": 200,
      "Ċ": 201,
      "ċ": 202,
      "Č": 203,
      "č": 204,
      "Ď": 205,
      "ď": 206,
      "Đ": 207,
      "đ": 208,
      "Ē": 209,
      "ē": 210,
      "Ĕ": 211,
      "ĕ": 212,
      "Ė": 213,
      "ė": 214,
      "Ę": 215,
      "ę": 216,
      "Ě": 217,
      "ě": 218,
      "Ĝ": 219,
      "ĝ": 220,
      "Ğ": 221,
      "ğ": 222,
      "Ġ": 223,
      "ġ": 224,
      "Ģ": 225,
      "ģ": 226,
      "Ĥ": 227,
      "ĥ": 228,
      "Ħ": 229,
      "ħ": 230,
      "Ĩ": 231,
      "ĩ": 232,
      "Ī": 233,
      "ī": 234,
      "Ĭ": 235,
      "ĭ": 236,
      "Į": 237,
      "į": 238,
      "İ": 239,
      "ı": 240,
      "Ĳ": 241,
      "ĳ": 242,
      "Ĵ": 243,
      "ĵ": 244,
      "Ķ": 245,
      "ķ": 246,
      "ĸ": 247,
      "Ĺ": 248,
      "ĺ": 249,
      "Ļ": 250,
      "ļ": 251,
      "Ľ": 252,
      "ľ": 253,
      "Ŀ": 254,
      "ŀ": 255,
      "Ł": 256,
      "ł": 257,
      "Ń": 258,
      "Ġ\"": 259,
      "er": 260,
      "st": 261,
      "Ġt": 262,
      "re": 263,
      "\":": 264,
      "Ġa": 265,
      "or": 266,
      "ed": 267,
      "<|": 268,
      "der": 269,
      "|>": 270,
      "in": 271,
      "nt": 272,
      "ss": 273,
      "order": 274,
      "ou": 275,
      "Ġ<|": 276,
      "\",": 277,
      "at": 278,
      "ca": 279,
      "nd": 280,
      "{\"": 281,
      "Ġth": 282,
      "ac": 283,
      "ay": 284,
      "id": 285,
      "ll": 286,
      "on": 287,
      "us": 288,
      "Ġs": 289,
      "it": 290,
      "ol": 291,
      "Ġw": 292,
      "\"}": 293,
      "ist": 294,
      "ool": 295,
      "Ġre": 296,
      "Ġ{\"": 297,
      "ack": 298,
      "as": 299,
      "ant": 300,
      "day": 301,
      "et": 302,
      "om": 303,
      "ĠI": 304,
      "Ġc": 305,
      "Ġf": 306,
      "Ġh": 307,
      "Ġp": 308,
      "ing": 309,
      "ssist": 310,
      "ssistant": 311,
      "ag": 312,
      "assistant": 313,
      "el": 314,
      "fu": 315,
      "is": 316,
      "ns": 317,
      "pp": 318,
      "ri": 319,
      "tool": 320,
      "ur": 321,
      "ust": 322,
      "ve": 323,
      "Ġb": 324,
      "Ġn": 325,
      "Ġto": 326,
      "call": 327,
      "Ġthe": 328,
      "omer": 329,
      "fund": 330,
      "ustomer": 331,
      "42": 332,
      "Th": 333,
      "am": 334,
      "dd": 335,
      "es": 336,
      "hi": 337,
      "ill": 338,
      "rack": 339,
      "rri": 340,
      "Ġl": 341,
      "Ġy": 342,
      "Ġst": 343,
      "Ġorder": 344,
      "Ġon": 345,
      "Ġtur": 346,
      "ress": 347,
      "ine": 348,
      "ount": 349,
      "atus": 350,
      "Ġwill": 351,
      "ackag": 352,
      "ason": 353,
      "Ġfor": 354,
      "ddress": 355,
      "hipp": 356,
      "Ġturns": 357,
      "ackage": 358,
      "12": 359,
      "99": 360,
      "You": 361,
      "al": 362,
      "an": 363,
      "ave": 364,
      "customer": 365,
      "ec": 366,
      "ee": 367,
      "em": 368,
      "est": 369,
      "ent": 370,
      "end": 371,
      "ho": 372,
      "im": 373,
      "lt": 374,
      "lat": 375,
      "ok": 376,
      "ot": 377,
      "se": 378,
      "su": 379,
      "track": 380,
      "um": 381,
      "up": 382,
      "ved": 383,
      "yst": 384,
      "ĠA": 385,
      "Ġm": 386,
      "Ġo": 387,
      "Ġus": 388,
      "Ġit": 389,
      "Ġday": 390,
      "Ġis": 391,
      "Ġ42": 392,
      "ĠTh": 393,
      "Ġtool": 394,
      "reet": 395,
      "refund": 396,
      "reason": 397,
      "Ġam": 398,
      "Ġand": 399,
      "Ġarri": 400,
      "Ġaddress": 401,
      "Ġ<|/": 402,
      "can": 403,
      "calat": 404,
      "Ġthat": 405,
      "Ġthis": 406,
      "usine": 407,
      "Ġshipp": 408,
      "ith": 409,
      "Ġwith": 410,
      "Ġrefund": 411,
      "Ġcustomer": 412,
      "Ġhas": 413,
      "Ġhave": 414,
      "Ġpackage": 415,
      "tools": 416,
      "Ġbusine": 417,
      "Ġne": 418,
      "Ġnot": 419,
      "amount": 420,
      "escalat": 421,
      "Ġyou": 422,
      "Ġstatus": 423,
      "imit": 424,
      "sult": 425,
      "ystem": 426,
      "Ġtools": 427,
      "Ġbusiness": 428,
      "02": 429,
      "09": 430,
      "012": 431,
      "18": 432,
      "1012": 433,
      "202": 434,
      "34": 435,
      "50": 436,
      "56": 437,
      "77": 438,
      "78": 439,
      "AA": 440,
      "Bo": 441,
      "Let": 442,
      "Ma": 443,
      "Or": 444,
      "PS": 445,
      "St": 446,
      "UPS": 447,
      "Wh": 448,
      "[{\"": 449,
      "ak": 450,
      "ar": 451,
      "ast": 452,
      "address": 453,
      "aved": 454,
      "ber": 455,
      "bou": 456,
      "ce": 457,
      "ch": 458,
      "ct": 459,
      "cy": 460,
      "cit": 461,
      "cel": 462,
      "di": 463,
      "dat": 464,
      "del": 465,
      "dam": 466,
      "ex": 467,
      "gh": 468,
      "gin": 469,
      "gent": 470,
      "hou": 471,
      "hing": 472,
      "hec": 473,
      "hum": 474,
      "iss": 475,
      "ion": 476,
      "ive": 477,
      "icall": 478,
      "ial": 479,
      "icy": 480,
      "igin": 481,
      "ks": 482,
      "ld": 483,
      "lac": 484,
      "line": 485,
      "limit": 486,
      "ment": 487,
      "ny": 488,
      "num": 489,
      "ov": 490,
      "ore": 491,
      "ont": 492,
      "ook": 493,
      "pt": 494,
      "pol": 495,
      "package": 496,
      "pec": 497,
      "qu": 498,
      "ru": 499,
      "ry": 500,
      "ror": 501,
      "rov": 502,
      "sday": 503,
      "shipp": 504,
      "system": 505,
      "to": 506,
      "tom": 507,
      "thing": 508,
      "ued": 509,
      "upp": 510,
      "utom": 511,
      "wer": 512,
      "way": 513,
      "Ġ$": 514,
      "Ġ5": 515,
      "Ġor": 516,
      "Ġid": 517,
      "Ġel": 518,
      "Ġri": 519,
      "Ġcall": 520,
      "Ġend": 521,
      "Ġup": 522,
      "Ġcan": 523,
      "Ġescalat": 524,
      "ĠLet": 525,
      "ĠMa": 526,
      "ĠSt": 527,
      "Ġdel": 528,
      "Ġex": 529,
      "Ġiss": 530,
      "ere": 531,
      "erday": 532,
      "error": 533,
      "ston": 534,
      "status": 535,
      "street": 536,
      "Ġtrack": 537,
      "Ġtak": 538,
      "Ġtru": 539,
      "ree": 540,
      "result": 541,
      "rect": 542,
      "Ġan": 543,
      "Ġare": 544,
      "Ġall": 545,
      "Ġassistant": 546,
      "Ġabou": 547,
      "Ġagent": 548,
      "Ġautom": 549,
      "Ġaway": 550,
      "ort": 551,
      "orry": 552,
      "eded": 553,
      "orders": 554,
      "ound": 555,
      "aticall": 556,
      "carri": 557,
      "Ġthree": 558,
      "act": 559,
      "ayment": 560,
      "ided": 561,
      "user": 562,
      "Ġsystem": 563,
      "Ġsaved": 564,
      "Ġshou": 565,
      "Ġspec": 566,
      "Ġsupp": 567,
      "Ġsorry": 568,
      "Ġwee": 569,
      "Ġwho": 570,
      "\"}]": 571,
      "Ġreason": 572,
      "Ġresult": 573,
      "Ġredi": 574,
      "Ġrequ": 575,
      "eta": 576,
      "etho": 577,
      "ĠIt": 578,
      "Ġchec": 579,
      "Ġcont": 580,
      "Ġfive": 581,
      "Ġfound": 582,
      "Ġhel": 583,
      "Ġplac": 584,
      "Ġprov": 585,
      "Ġpayment": 586,
      "aged": 587,
      "nswer": 588,
      "ursday": 589,
      "Ġbe": 590,
      "Ġbee": 591,
      "Ġtoday": 592,
      "Than": 593,
      "Ġlimit": 594,
      "Ġlast": 595,
      "Ġlook": 596,
      "Ġyest": 597,
      "Ġstore": 598,
      "Ġone": 599,
      "Ġonline": 600,
      "999": 601,
      "Your": 602,
      "ested": 603,
      "sear": 604,
      "tracking": 605,
      "updat": 606,
      "ĠAny": 607,
      "ĠAnswer": 608,
      "Ġme": 609,
      "Ġmetho": 610,
      "Ġof": 611,
      "Ġuser": 612,
      "Ġusing": 613,
      "Ġdays": 614,
      "ĠThe": 615,
      "ĠThursday": 616,
      "Ġamount": 617,
      "Ġarrive": 618,
      "Ġarrived": 619,
      "cancel": 620,
      "Ġshipped": 621,
      "Ġshipping": 622,
      "Ġwithin": 623,
      "Ġnew": 624,
      "Ġneeded": 625,
      "escalate": 626,
      "Ġyour": 627,
      "101234": 628,
      "2026": 629,
      "5678": 630,
      "Boston": 631,
      "Order": 632,
      "Where": 633,
      "cept": 634,
      "city": 635,
      "damaged": 636,
      "ght": 637,
      "human": 638,
      "ialist": 639,
      "iginal": 640,
      "number": 641,
      "policy": 642,
      "shipped": 643,
      "Ġoriginal": 644,
      "Ġelse": 645,
      "Ġright": 646,
      "Ġescalated": 647,
      "ĠMain": 648,
      "ĠStreet": 649,
      "Ġdelay": 650,
      "Ġexcept": 651,
      "Ġissued": 652,
      "Ġtracking": 653,
      "Ġtakes": 654,
      "Ġtrue": 655,
      "rected": 656,
      "Ġabout": 657,
      "Ġautomaticall": 658,
      "carrier": 659,
      "Ġshould": 660,
      "Ġspecialist": 661,
      "Ġsupport": 662,
      "Ġweek": 663,
      "Ġredirected": 664,
      "Ġrequested": 665,
      "Ġcheck": 666,
      "Ġcontact": 667,
      "Ġhelp": 668,
      "Ġplaced": 669,
      "Ġprovided": 670,
      "Ġbeen": 671,
      "Thanks": 672,
      "Ġyesterday": 673,
      "search": 674,
      "update": 675,
      "ĠAnything": 676,
      "Ġmethod": 677,
      "1012345678": 678,
      "Ġexception": 679,
      "Ġautomatically": 680,
      "10123456784": 681
    },
    "merges": [
      [
        "Ġ",
        "\""
      ],
      [
        "e",
        "r"
      ],
      [
        "s",
        "t"
      ],
      [
        "Ġ",
        "t"
      ],
      [
        "r",
        "e"
      ],
      [
        "\"",
        ":"
      ],
      [
        "Ġ",
        "a"
      ],
      [
        "o",
        "r"
      ],
      [
        "e",
        "d"
      ],
      [
        "<",
        "|"
      ],
      [
        "d",
        "er"
      ],
      [
        "|",
        ">"
      ],
      [
        "i",
        "n"
      ],
      [
        "n",
        "t"
      ],
      [
        "s",
        "s"
      ],
      [
        "or",
        "der"
      ],
      [
        "o",
        "u"
      ],
      [
        "Ġ",
        "<|"
      ],
      [
        "\"",
        ","
      ],
      [
        "a",
        "t"
      ],
      [
        "c",
        "a"
      ],
      [
        "n",
        "d"
      ],
      [
        "{",
        "\""
      ],
      [
        "Ġt",
        "h"
      ],
      [
        "a",
        "c"
      ],
      [
        "a",
        "y"
      ],
      [
        "i",
        "d"
      ],
      [
        "l",
        "l"
      ],
      [
        "o",
        "n"
      ],
      [
        "u",
        "s"
      ],
      [
        "Ġ",
        "s"
      ],
      [
        "i",
        "t"
      ],
      [
        "o",
        "l"
      ],
      [
        "Ġ",
        "w"
      ],
      [
        "\"",
        "}"
      ],
      [
        "i",
        "st"
      ],
      [
        "o",
        "ol"
      ],
      [
        "Ġ",
        "re"
      ],
      [
        "Ġ",
        "{\""
      ],
      [
        "ac",
        "k"
      ],
      [
        "a",
        "s"
      ],
      [
        "a",
        "nt"
      ],
      [
        "d",
        "ay"
      ],
      [
        "e",
        "t"
      ],
      [
        "o",
        "m"
      ],
      [
        "Ġ",
        "I"
      ],
      [
        "Ġ",
        "c"
      ],
      [
        "Ġ",
        "f"
      ],
      [
        "Ġ",
        "h"
      ],
      [
        "Ġ",
        "p"
      ],
      [
        "in",
        "g"
      ],
      [
        "ss",
        "ist"
      ],
      [
        "ssist",
        "ant"
      ],
      [
        "a",
        "g"
      ],
      [
        "a",
        "ssistant"
      ],
      [
        "e",
        "l"
      ],
      [
        "f",
        "u"
      ],
      [
        "i",
        "s"
      ],
      [
        "n",
        "s"
      ],
      [
        "p",
        "p"
      ],
      [
        "r",
        "i"
      ],
      [
        "t",
        "ool"
      ],
      [
        "u",
        "r"
      ],
      [
        "u",
        "st"
      ],
      [
        "v",
        "e"
      ],
      [
        "Ġ",
        "b"
      ],
      [
        "Ġ",
        "n"
      ],
      [
        "Ġt",
        "o"
      ],
      [
        "ca",
        "ll"
      ],
      [
        "Ġth",
        "e"
      ],
      [
        "om",
        "er"
      ],
      [
        "fu",
        "nd"
      ],
      [
        "ust",
        "omer"
      ],
      [
        "4",
        "2"
      ],
      [
        "T",
        "h"
      ],
      [
        "a",
        "m"
      ],
      [
        "d",
        "d"
      ],
      [
        "e",
        "s"
      ],
      [
        "h",
        "i"
      ],
      [
        "i",
        "ll"
      ],
      [
        "r",
        "ack"
      ],
      [
        "r",
        "ri"
      ],
      [
        "Ġ",
        "l"
      ],
      [
        "Ġ",
        "y"
      ],
      [
        "Ġ",
        "st"
      ],
      [
        "Ġ",
        "order"
      ],
      [
        "Ġ",
        "on"
      ],
      [
        "Ġt",
        "ur"
      ],
      [
        "re",
        "ss"
      ],
      [
        "in",
        "e"
      ],
      [
        "ou",
        "nt"
      ],
      [
        "at",
        "us"
      ],
      [
        "Ġw",
        "ill"
      ],
      [
        "ack",
        "ag"
      ],
      [
        "as",
        "on"
      ],
      [
        "Ġf",
        "or"
      ],
      [
        "dd",
        "ress"
      ],
      [
        "hi",
        "pp"
      ],
      [
        "Ġtur",
        "ns"
      ],
      [
        "ackag",
        "e"
      ],
      [
        "1",
        "2"
      ],
      [
        "9",
        "9"
      ],
      [
        "Y",
        "ou"
      ],
      [
        "a",
        "l"
      ],
      [
        "a",
        "n"
      ],
      [
        "a",
        "ve"
      ],
      [
        "c",
        "ustomer"
      ],
      [
        "e",
        "c"
      ],
      [
        "e",
        "e"
      ],
      [
        "e",
        "m"
      ],
      [
        "e",
        "st"
      ],
      [
        "e",
        "nt"
      ],
      [
        "e",
        "nd"
      ],
      [
        "h",
        "o"
      ],
      [
        "i",
        "m"
      ],
      [
        "l",
        "t"
      ],
      [
        "l",
        "at"
      ],
      [
        "o",
        "k"
      ],
      [
        "o",
        "t"
      ],
      [
        "s",
        "e"
      ],
      [
        "s",
        "u"
      ],
      [
        "t",
        "rack"
      ],
      [
        "u",
        "m"
      ],
      [
        "u",
        "p"
      ],
      [
        "v",
        "ed"
      ],
      [
        "y",
        "st"
      ],
      [
        "Ġ",
        "A"
      ],
      [
        "Ġ",
        "m"
      ],
      [
        "Ġ",
        "o"
      ],
      [
        "Ġ",
        "us"
      ],
      [
        "Ġ",
        "it"
      ],
      [
        "Ġ",
        "day"
      ],
      [
        "Ġ",
        "is"
      ],
      [
        "Ġ",
        "42"
      ],
      [
        "Ġ",
        "Th"
      ],
      [
        "Ġt",
        "ool"
      ],
      [
        "re",
        "et"
      ],
      [
        "re",
        "fund"
      ],
      [
        "re",
        "ason"
      ],
      [
        "Ġa",
        "m"
      ],
      [
        "Ġa",
        "nd"
      ],
      [
        "Ġa",
        "rri"
      ],
      [
        "Ġa",
        "ddress"
      ],
      [
        "Ġ<|",
        "/"
      ],
      [
        "ca",
        "n"
      ],
      [
        "ca",
        "lat"
      ],
      [
        "Ġth",
        "at"
      ],
      [
        "Ġth",
        "is"
      ],
      [
        "us",
        "ine"
      ],
      [
        "Ġs",
        "hipp"
      ],
      [
        "it",
        "h"
      ],
      [
        "Ġw",
        "ith"
      ],
      [
        "Ġre",
        "fund"
      ],
      [
        "Ġc",
        "ustomer"
      ],
      [
        "Ġh",
        "as"
      ],
      [
        "Ġh",
        "ave"
      ],
      [
        "Ġp",
        "ackage"
      ],
      [
        "tool",
        "s"
      ],
      [
        "Ġb",
        "usine"
      ],
      [
        "Ġn",
        "e"
      ],
      [
        "Ġn",
        "ot"
      ],
      [
        "am",
        "ount"
      ],
      [
        "es",
        "calat"
      ],
      [
        "Ġy",
        "ou"
      ],
      [
        "Ġst",
        "atus"
      ],
      [
        "im",
        "it"
      ],
      [
        "su",
        "lt"
      ],
      [
        "yst",
        "em"
      ],
      [
        "Ġtool",
        "s"
      ],
      [
        "Ġbusine",
        "ss"
      ],
      [
        "0",
        "2"
      ],
      [
        "0",
        "9"
      ],
      [
        "0",
        "12"
      ],
      [
        "1",
        "8"
      ],
      [
        "1",
        "012"
      ],
      [
        "2",
        "02"
      ],
      [
        "3",
        "4"
      ],
      [
        "5",
        "0"
      ],
      [
        "5",
        "6"
      ],
      [
        "7",
        "7"
      ],
      [
        "7",
        "8"
      ],
      [
        "A",
        "A"
      ],
      [
        "B",
        "o"
      ],
      [
        "L",
        "et"
      ],
      [
        "M",
        "a"
      ],
      [
        "O",
        "r"
      ],
      [
        "P",
        "S"
      ],
      [
        "S",
        "t"
      ],
      [
        "U",
        "PS"
      ],
      [
        "W",
        "h"
      ],
      [
        "[",
        "{\""
      ],
      [
        "a",
        "k"
      ],
      [
        "a",
        "r"
      ],
      [
        "a",
        "st"
      ],
      [
        "a",
        "ddress"
      ],
      [
        "a",
        "ved"
      ],
      [
        "b",
        "er"
      ],
      [
        "b",
        "ou"
      ],
      [
        "c",
        "e"
      ],
      [
        "c",
        "h"
      ],
      [
        "c",
        "t"
      ],
      [
        "c",
        "y"
      ],
      [
        "c",
        "it"
      ],
      [
        "c",
        "el"
      ],
      [
        "d",
        "i"
      ],
      [
        "d",
        "at"
      ],
      [
        "d",
        "el"
      ],
      [
        "d",
        "am"
      ],
      [
        "e",
        "x"
      ],
      [
        "g",
        "h"
      ],
      [
        "g",
        "in"
      ],
      [
        "g",
        "ent"
      ],
      [
        "h",
        "ou"
      ],
      [
        "h",
        "ing"
      ],
      [
        "h",
        "ec"
      ],
      [
        "h",
        "um"
      ],
      [
        "i",
        "ss"
      ],
      [
        "i",
        "on"
      ],
      [
        "i",
        "ve"
      ],
      [
        "i",
        "call"
      ],
      [
        "i",
        "al"
      ],
      [
        "i",
        "cy"
      ],
      [
        "i",
        "gin"
      ],
      [
        "k",
        "s"
      ],
      [
        "l",
        "d"
      ],
      [
        "l",
        "ac"
      ],
      [
        "l",
        "ine"
      ],
      [
        "l",
        "imit"
      ],
      [
        "m",
        "ent"
      ],
      [
        "n",
        "y"
      ],
      [
        "n",
        "um"
      ],
      [
        "o",
        "v"
      ],
      [
        "o",
        "re"
      ],
      [
        "o",
        "nt"
      ],
      [
        "o",
        "ok"
      ],
      [
        "p",
        "t"
      ],
      [
        "p",
        "ol"
      ],
      [
        "p",
        "ackage"
      ],
      [
        "p",
        "ec"
      ],
      [
        "q",
        "u"
      ],
      [
        "r",
        "u"
      ],
      [
        "r",
        "y"
      ],
      [
        "r",
        "or"
      ],
      [
        "r",
        "ov"
      ],
      [
        "s",
        "day"
      ],
      [
        "s",
        "hipp"
      ],
      [
        "s",
        "ystem"
      ],
      [
        "t",
        "o"
      ],
      [
        "t",
        "om"
      ],
      [
        "t",
        "hing"
      ],
      [
        "u",
        "ed"
      ],
      [
        "u",
        "pp"
      ],
      [
        "u",
        "tom"
      ],
      [
        "w",
        "er"
      ],
      [
        "w",
        "ay"
      ],
      [
        "Ġ",
        "$"
      ],
      [
        "Ġ",
        "5"
      ],
      [
        "Ġ",
        "or"
      ],
      [
        "Ġ",
        "id"
      ],
      [
        "Ġ",
        "el"
      ],
      [
        "Ġ",
        "ri"
      ],
      [
        "Ġ",
        "call"
      ],
      [
        "Ġ",
        "end"
      ],
      [
        "Ġ",
        "up"
      ],
      [
        "Ġ",
        "can"
      ],
      [
        "Ġ",
        "escalat"
      ],
      [
        "Ġ",
        "Let"
      ],
      [
        "Ġ",
        "Ma"
      ],
      [
        "Ġ",
        "St"
      ],
      [
        "Ġ",
        "del"
      ],
      [
        "Ġ",
        "ex"
      ],
      [
        "Ġ",
        "iss"
      ],
      [
        "er",
        "e"
      ],
      [
        "er",
        "day"
      ],
      [
        "er",
        "ror"
      ],
      [
        "st",
        "on"
      ],
      [
        "st",
        "atus"
      ],
      [
        "st",
        "reet"
      ],
      [
        "Ġt",
        "rack"
      ],
      [
        "Ġt",
        "ak"
      ],
      [
        "Ġt",
        "ru"
      ],
      [
        "re",
        "e"
      ],
      [
        "re",
        "sult"
      ],
      [
        "re",
        "ct"
      ],
      [
        "Ġa",
        "n"
      ],
      [
        "Ġa",
        "re"
      ],
      [
        "Ġa",
        "ll"
      ],
      [
        "Ġa",
        "ssistant"
      ],
      [
        "Ġa",
        "bou"
      ],
      [
        "Ġa",
        "gent"
      ],
      [
        "Ġa",
        "utom"
      ],
      [
        "Ġa",
        "way"
      ],
      [
        "or",
        "t"
      ],
      [
        "or",
        "ry"
      ],
      [
        "ed",
        "ed"
      ],
      [
        "order",
        "s"
      ],
      [
        "ou",
        "nd"
      ],
      [
        "at",
        "icall"
      ],
      [
        "ca",
        "rri"
      ],
      [
        "Ġth",
        "ree"
      ],
      [
        "ac",
        "t"
      ],
      [
        "ay",
        "ment"
      ],
      [
        "id",
        "ed"
      ],
      [
        "us",
        "er"
      ],
      [
        "Ġs",
        "ystem"
      ],
      [
        "Ġs",
        "aved"
      ],
      [
        "Ġs",
        "hou"
      ],
      [
        "Ġs",
        "pec"
      ],
      [
        "Ġs",
        "upp"
      ],
      [
        "Ġs",
        "orry"
      ],
      [
        "Ġw",
        "ee"
      ],
      [
        "Ġw",
        "ho"
      ],
      [
        "\"}",
        "]"
      ],
      [
        "Ġre",
        "ason"
      ],
      [
        "Ġre",
        "sult"
      ],
      [
        "Ġre",
        "di"
      ],
      [
        "Ġre",
        "qu"
      ],
      [
        "et",
        "a"
      ],
      [
        "et",
        "ho"
      ],
      [
        "ĠI",
        "t"
      ],
      [
        "Ġc",
        "hec"
      ],
      [
        "Ġc",
        "ont"
      ],
      [
        "Ġf",
        "ive"
      ],
      [
        "Ġf",
        "ound"
      ],
      [
        "Ġh",
        "el"
      ],
      [
        "Ġp",
        "lac"
      ],
      [
        "Ġp",
        "rov"
      ],
      [
        "Ġp",
        "ayment"
      ],
      [
        "ag",
        "ed"
      ],
      [
        "ns",
        "wer"
      ],
      [
        "ur",
        "sday"
      ],
      [
        "Ġb",
        "e"
      ],
      [
        "Ġb",
        "ee"
      ],
      [
        "Ġto",
        "day"
      ],
      [
        "Th",
        "an"
      ],
      [
        "Ġl",
        "imit"
      ],
      [
        "Ġl",
        "ast"
      ],
      [
        "Ġl",
        "ook"
      ],
      [
        "Ġy",
        "est"
      ],
      [
        "Ġst",
        "ore"
      ],
      [
        "Ġon",
        "e"
      ],
      [
        "Ġon",
        "line"
      ],
      [
        "99",
        "9"
      ],
      [
        "You",
        "r"
      ],
      [
        "est",
        "ed"
      ],
      [
        "se",
        "ar"
      ],
      [
        "track",
        "ing"
      ],
      [
        "up",
        "dat"
      ],
      [
        "ĠA",
        "ny"
      ],
      [
        "ĠA",
        "nswer"
      ],
      [
        "Ġm",
        "e"
      ],
      [
        "Ġm",
        "etho"
      ],
      [
        "Ġo",
        "f"
      ],
      [
        "Ġus",
        "er"
      ],
      [
        "Ġus",
        "ing"
      ],
      [
        "Ġday",
        "s"
      ],
      [
        "ĠTh",
        "e"
      ],
      [
        "ĠTh",
        "ursday"
      ],
      [
        "Ġam",
        "ount"
      ],
      [
        "Ġarri",
        "ve"
      ],
      [
        "Ġarri",
        "ved"
      ],
      [
        "can",
        "cel"
      ],
      [
        "Ġshipp",
        "ed"
      ],
      [
        "Ġshipp",
        "ing"
      ],
      [
        "Ġwith",
        "in"
      ],
      [
        "Ġne",
        "w"
      ],
      [
        "Ġne",
        "eded"
      ],
      [
        "escalat",
        "e"
      ],
      [
        "Ġyou",
        "r"
      ],
      [
        "1012",
        "34"
      ],
      [
        "202",
        "6"
      ],
      [
        "56",
        "78"
      ],
      [
        "Bo",
        "ston"
      ],
      [
        "Or",
        "der"
      ],
      [
        "Wh",
        "ere"
      ],
      [
        "ce",
        "pt"
      ],
      [
        "cit",
        "y"
      ],
      [
        "dam",
        "aged"
      ],
      [
        "gh",
        "t"
      ],
      [
        "hum",
        "an"
      ],
      [
        "ial",
        "ist"
      ],
      [
        "igin",
        "al"
      ],
      [
        "num",
        "ber"
      ],
      [
        "pol",
        "icy"
      ],
      [
        "shipp",
        "ed"
      ],
      [
        "Ġor",
        "iginal"
      ],
      [
        "Ġel",
        "se"
      ],
      [
        "Ġri",
        "ght"
      ],
      [
        "Ġescalat",
        "ed"
      ],
      [
        "ĠMa",
        "in"
      ],
      [
        "ĠSt",
        "reet"
      ],
      [
        "Ġdel",
        "ay"
      ],
      [
        "Ġex",
        "cept"
      ],
      [
        "Ġiss",
        "ued"
      ],
      [
        "Ġtrack",
        "ing"
      ],
      [
        "Ġtak",
        "es"
      ],
      [
        "Ġtru",
        "e"
      ],
      [
        "rect",
        "ed"
      ],
      [
        "Ġabou",
        "t"
      ],
      [
        "Ġautom",
        "aticall"
      ],
      [
        "carri",
        "er"
      ],
      [
        "Ġshou",
        "ld"
      ],
      [
        "Ġspec",
        "ialist"
      ],
      [
        "Ġsupp",
        "ort"
      ],
      [
        "Ġwee",
        "k"
      ],
      [
        "Ġredi",
        "rected"
      ],
      [
        "Ġrequ",
        "ested"
      ],
      [
        "Ġchec",
        "k"
      ],
      [
        "Ġcont",
        "act"
      ],
      [
        "Ġhel",
        "p"
      ],
      [
        "Ġplac",
        "ed"
      ],
      [
        "Ġprov",
        "ided"
      ],
      [
        "Ġbee",
        "n"
      ],
      [
        "Than",
        "ks"
      ],
      [
        "Ġyest",
        "erday"
      ],
      [
        "sear",
        "ch"
      ],
      [
        "updat",
        "e"
      ],
      [
        "ĠAny",
        "thing"
      ],
      [
        "Ġmetho",
        "d"
      ],
      [
        "101234",
        "5678"
      ],
      [
        "Ġexcept",
        "ion"
      ],
      [
        "Ġautomaticall",
        "y"
      ],
      [
        "1012345678",
        "4"
      ]
    ]
  }
}